MEMORY_INITIALIZATION_RADIX=2;
MEMORY_INITIALIZATION_VECTOR=
00010101000000010101111100000100111100001100001100,
00000000000000000000000000000000000000000000000000,
00000000000000000000000000000000000000000000000000,
00000000000000000000000000000000000000000000000000,
01000011110001000000010101010100000100010000110000,
00000000000000000000000000000000000000000000000000,
00000000000000000000000000000000000000000000000000,
00000000000000000000000000000000000000000000000000,
11110001001100010000000001000000010000110000000000,
00000000000000000000000000000000000000000000000000,
00000000000000000000000000000000000000000000000000,
00000000000000000000000000000000000000000000000000,
00001111110000010101000001010111001111000000111111,
00000000000000000000000000000000000000000000000000,
00000000000000000000000000000000000000000000000000,
00000000000000000000000000000000000000000000000000,
00000101010000000101001111000100001111110000001100,
00000000000000000000000000000000000000000000000000,
00000000000000000000000000000000000000000000000000,
00000000000000000000000000000000000000000000000000,
00000011000111000001001101010000010101000101001100,
00000000000000000000000000000000000000000000000000,
00000000000000000000000000000000000000000000000000,
00000000000000000000000000000000000000000000000000,
00110001000000000111000001000000000001110000011101,
00000000000000000000000000000000000000000000000000,
00000000000000000000000000000000000000000000000000,
00000000000000000000000000000000000000000000000000,
11000000011100000100001100010111110101000000000100,
00000000000000000000000000000000000000000000000000,
00000000000000000000000000000000000000000000000000,
00000000000000000000000000000000000000000000000000,
00000001000000010000000101001100010111110001001111,
00000000000000001100000100111101111100011111110101,
11111111110011110000010001000000010101010101000000,
00001111110101110000010100110001010100110001010000,
11010100000001010000000111110100010100010000001111,
00000011110100000101110101010100000000011100110000,
00010001010101010100010000000011111111111111110000,
11001100000011111100000000010000000000010001010000,
01110000000001000101010100000011110011001111111111,
01010000111101111100000001000100010101010000001100,
01000000000000000000001111000111111101011111000101,
11111100011100010101000101010000010111110000111100;
